#pragma once

#ifndef OPTIMIZED_MLP_FLOAT32_H
#define OPTIMIZED_MLP_FLOAT32_H

#ifdef __has_attribute
#define HAVE_ATTRIBUTE(x) __has_attribute(x)
#else
#define HAVE_ATTRIBUTE(x) 0
#endif
#if HAVE_ATTRIBUTE(aligned) || (defined(__GNUC__) && !defined(__clang__))
#define DATA_ALIGN_ATTRIBUTE __attribute__((aligned(4)))
#else
#define DATA_ALIGN_ATTRIBUTE
#endif


const unsigned char GeneratedCHeaderFile_optimized_mlp_tflite[]  DATA_ALIGN_ATTRIBUTE= {
  0x1c, 0x00, 0x00, 0x00, 0x54, 0x46, 0x4c, 0x33, 0x14, 0x00, 0x20, 0x00,
  0x1c, 0x00, 0x18, 0x00, 0x14, 0x00, 0x10, 0x00, 0x0c, 0x00, 0x00, 0x00,
  0x08, 0x00, 0x04, 0x00, 0x14, 0x00, 0x00, 0x00, 0x1c, 0x00, 0x00, 0x00,
  0x98, 0x00, 0x00, 0x00, 0xf0, 0x00, 0x00, 0x00, 0x60, 0x12, 0x00, 0x00,
  0x70, 0x12, 0x00, 0x00, 0x40, 0x18, 0x00, 0x00, 0x03, 0x00, 0x00, 0x00,
  0x01, 0x00, 0x00, 0x00, 0x10, 0x00, 0x00, 0x00, 0x00, 0x00, 0x0a, 0x00,
  0x10, 0x00, 0x0c, 0x00, 0x08, 0x00, 0x04, 0x00, 0x0a, 0x00, 0x00, 0x00,
  0x0c, 0x00, 0x00, 0x00, 0x1c, 0x00, 0x00, 0x00, 0x3c, 0x00, 0x00, 0x00,
  0x0f, 0x00, 0x00, 0x00, 0x73, 0x65, 0x72, 0x76, 0x69, 0x6e, 0x67, 0x5f,
  0x64, 0x65, 0x66, 0x61, 0x75, 0x6c, 0x74, 0x00, 0x01, 0x00, 0x00, 0x00,
  0x04, 0x00, 0x00, 0x00, 0x90, 0xff, 0xff, 0xff, 0x0a, 0x00, 0x00, 0x00,
  0x04, 0x00, 0x00, 0x00, 0x08, 0x00, 0x00, 0x00, 0x6f, 0x75, 0x74, 0x70,
  0x75, 0x74, 0x5f, 0x30, 0x00, 0x00, 0x00, 0x00, 0x01, 0x00, 0x00, 0x00,
  0x04, 0x00, 0x00, 0x00, 0x86, 0xed, 0xff, 0xff, 0x04, 0x00, 0x00, 0x00,
  0x0c, 0x00, 0x00, 0x00, 0x6b, 0x65, 0x72, 0x61, 0x73, 0x5f, 0x74, 0x65,
  0x6e, 0x73, 0x6f, 0x72, 0x00, 0x00, 0x00, 0x00, 0x02, 0x00, 0x00, 0x00,
  0x34, 0x00, 0x00, 0x00, 0x04, 0x00, 0x00, 0x00, 0xdc, 0xff, 0xff, 0xff,
  0x0d, 0x00, 0x00, 0x00, 0x04, 0x00, 0x00, 0x00, 0x13, 0x00, 0x00, 0x00,
  0x43, 0x4f, 0x4e, 0x56, 0x45, 0x52, 0x53, 0x49, 0x4f, 0x4e, 0x5f, 0x4d,
  0x45, 0x54, 0x41, 0x44, 0x41, 0x54, 0x41, 0x00, 0x08, 0x00, 0x0c, 0x00,
  0x08, 0x00, 0x04, 0x00, 0x08, 0x00, 0x00, 0x00, 0x0c, 0x00, 0x00, 0x00,
  0x04, 0x00, 0x00, 0x00, 0x13, 0x00, 0x00, 0x00, 0x6d, 0x69, 0x6e, 0x5f,
  0x72, 0x75, 0x6e, 0x74, 0x69, 0x6d, 0x65, 0x5f, 0x76, 0x65, 0x72, 0x73,
  0x69, 0x6f, 0x6e, 0x00, 0x0e, 0x00, 0x00, 0x00, 0x6c, 0x11, 0x00, 0x00,
  0x64, 0x11, 0x00, 0x00, 0x54, 0x09, 0x00, 0x00, 0x04, 0x09, 0x00, 0x00,
  0xf4, 0x07, 0x00, 0x00, 0xd4, 0x07, 0x00, 0x00, 0x44, 0x07, 0x00, 0x00,
  0xb4, 0x00, 0x00, 0x00, 0xac, 0x00, 0x00, 0x00, 0xa4, 0x00, 0x00, 0x00,
  0x9c, 0x00, 0x00, 0x00, 0x94, 0x00, 0x00, 0x00, 0x74, 0x00, 0x00, 0x00,
  0x04, 0x00, 0x00, 0x00, 0x3a, 0xee, 0xff, 0xff, 0x04, 0x00, 0x00, 0x00,
  0x60, 0x00, 0x00, 0x00, 0x0c, 0x00, 0x00, 0x00, 0x08, 0x00, 0x0e, 0x00,
  0x08, 0x00, 0x04, 0x00, 0x08, 0x00, 0x00, 0x00, 0x10, 0x00, 0x00, 0x00,
  0x28, 0x00, 0x00, 0x00, 0x00, 0x00, 0x06, 0x00, 0x08, 0x00, 0x04, 0x00,
  0x06, 0x00, 0x00, 0x00, 0x04, 0x00, 0x00, 0x00, 0x01, 0x00, 0x00, 0x00,
  0xea, 0x03, 0x00, 0x00, 0x0c, 0x00, 0x18, 0x00, 0x14, 0x00, 0x10, 0x00,
  0x0c, 0x00, 0x04, 0x00, 0x0c, 0x00, 0x00, 0x00, 0x81, 0x13, 0xf3, 0x07,
  0x4e, 0x61, 0xf7, 0x74, 0x02, 0x00, 0x00, 0x00, 0x02, 0x00, 0x00, 0x00,
  0x04, 0x00, 0x00, 0x00, 0x06, 0x00, 0x00, 0x00, 0x32, 0x2e, 0x31, 0x37,
  0x2e, 0x30, 0x00, 0x00, 0xa6, 0xee, 0xff, 0xff, 0x04, 0x00, 0x00, 0x00,
  0x10, 0x00, 0x00, 0x00, 0x31, 0x2e, 0x35, 0x2e, 0x30, 0x00, 0x00, 0x00,
  0x00, 0x00, 0x00, 0x00, 0x00, 0x00, 0x00, 0x00, 0xa0, 0xe9, 0xff, 0xff,
  0xa4, 0xe9, 0xff, 0xff, 0xa8, 0xe9, 0xff, 0xff, 0xac, 0xe9, 0xff, 0xff,
  0xd2, 0xee, 0xff, 0xff, 0x04, 0x00, 0x00, 0x00, 0x80, 0x06, 0x00, 0x00,
  0xa0, 0x85, 0xa4, 0xbb, 0x2a, 0x52, 0x16, 0x3f, 0x02, 0x4f, 0x71, 0xbf,
  0xd7, 0x57, 0xaa, 0x3d, 0x0a, 0x52, 0xdd, 0x3c, 0x4a, 0x1b, 0x93, 0x3e,
  0xe5, 0x3e, 0x62, 0x3e, 0x27, 0x13, 0x5f, 0xbe, 0x09, 0x0a, 0x98, 0xbc,
  0xca, 0x7a, 0x09, 0xbf, 0x91, 0x9c, 0x3d, 0x3e, 0xd0, 0x41, 0x4c, 0xbe,
  0x53, 0xb8, 0x1b, 0xbe, 0x70, 0x53, 0xeb, 0xbc, 0xb2, 0x3d, 0x8c, 0x3e,
  0x92, 0x7a, 0xa8, 0xbe, 0x1a, 0x19, 0x9f, 0x3e, 0x38, 0xed, 0xfa, 0x3d,
  0x05, 0xb8, 0xa8, 0xbe, 0x03, 0xed, 0x2c, 0xbe, 0x08, 0x4f, 0x68, 0xbe,
  0xac, 0x50, 0xc3, 0xbd, 0x8c, 0x96, 0xa0, 0xbe, 0x98, 0x0a, 0x89, 0x3d,
  0x4d, 0xbf, 0xa1, 0xbe, 0x60, 0xfb, 0x78, 0x3d, 0x14, 0x9d, 0xa1, 0xbe,
  0x58, 0xbd, 0xa6, 0xbe, 0xbe, 0xa2, 0xa1, 0x3e, 0x0b, 0x5f, 0x80, 0xbe,
  0xef, 0xdf, 0x22, 0xbe, 0x8c, 0x66, 0x9b, 0x3d, 0x80, 0xd3, 0xb6, 0xbd,
  0x91, 0x16, 0x58, 0x3e, 0x05, 0x28, 0xa6, 0xbe, 0xbe, 0x1b, 0xa4, 0x3d,
  0x12, 0x14, 0x20, 0x3e, 0xfa, 0x9d, 0xdc, 0xbd, 0xa8, 0x4c, 0x71, 0xbe,
  0xcd, 0x95, 0x02, 0xbf, 0x44, 0x74, 0x80, 0x3e, 0x1c, 0x34, 0x31, 0xbe,
  0x19, 0xf4, 0x1e, 0x3c, 0x61, 0xb4, 0x37, 0xbe, 0x8c, 0x13, 0xbd, 0x3e,
  0xb5, 0xa5, 0x82, 0x3e, 0xed, 0x12, 0xd6, 0xbe, 0x6c, 0x6e, 0x43, 0x3e,
  0xb9, 0xc9, 0x2a, 0xbf, 0xc9, 0x32, 0x23, 0x3f, 0x12, 0x45, 0x40, 0x3f,
  0xb7, 0x62, 0x9e, 0x3e, 0xd4, 0xbd, 0x8f, 0x3d, 0x26, 0x38, 0x00, 0x3e,
  0x20, 0x58, 0xd1, 0x3c, 0x4c, 0x11, 0x8f, 0x3d, 0x9c, 0xf4, 0x30, 0x3e,
  0xc0, 0xbe, 0x66, 0xbc, 0x38, 0x1b, 0xac, 0xbd, 0x40, 0x4c, 0x91, 0xbb,
  0xfd, 0x0f, 0x74, 0xbe, 0xac, 0x55, 0xa1, 0x3e, 0xe5, 0xaf, 0xb9, 0xbe,
  0xd8, 0x0c, 0x8a, 0xbd, 0x36, 0x5f, 0x65, 0xbe, 0x02, 0xb0, 0xfe, 0x3e,
  0x4b, 0x87, 0x31, 0xc0, 0xfd, 0x15, 0x2e, 0xbe, 0xed, 0xc5, 0xb2, 0x3c,
  0x02, 0xd3, 0x5f, 0x3e, 0x65, 0x1c, 0xe4, 0xbd, 0x97, 0xa3, 0xae, 0x3e,
  0x33, 0x40, 0xa1, 0xbd, 0x28, 0xb4, 0xff, 0xbc, 0xc5, 0x9a, 0xa3, 0xbf,
  0x59, 0x55, 0xf7, 0x3e, 0x8b, 0x1b, 0xd2, 0x3e, 0x0b, 0x01, 0x6e, 0xbe,
  0xda, 0xec, 0x9f, 0xbb, 0x9f, 0x29, 0xdc, 0xbd, 0x6f, 0xcf, 0x60, 0x3f,
  0x25, 0xdc, 0x43, 0xbf, 0x06, 0x16, 0x9e, 0xbc, 0xee, 0x8d, 0x42, 0x3e,
  0x33, 0x11, 0x84, 0xbd, 0xe2, 0xce, 0x4a, 0xbb, 0x3c, 0x61, 0x9f, 0xbb,
  0x35, 0x8d, 0xac, 0x3e, 0x09, 0x24, 0xf1, 0x3d, 0xb5, 0x87, 0xc9, 0x3d,
  0xc6, 0x1d, 0x7c, 0xbe, 0xed, 0xc9, 0x56, 0x3e, 0xf7, 0xbb, 0x14, 0x3e,
  0x69, 0xd9, 0x41, 0x3f, 0x83, 0xe9, 0x96, 0x3e, 0x7a, 0x10, 0x16, 0xbd,
  0x43, 0x1d, 0x8d, 0x3e, 0x99, 0x23, 0xe7, 0x3d, 0x96, 0x37, 0x87, 0x3d,
  0xab, 0xc3, 0x4a, 0x3e, 0x9f, 0xef, 0x89, 0x3e, 0x2c, 0x2f, 0xd5, 0xbe,
  0xcd, 0xb4, 0x0a, 0xbf, 0xba, 0xfd, 0xe9, 0x3e, 0xd9, 0x64, 0x57, 0xbe,
  0x6c, 0x23, 0xad, 0x3e, 0xc0, 0x27, 0xed, 0x3c, 0x98, 0x99, 0xed, 0xbd,
  0x78, 0xd3, 0x26, 0xbd, 0xe8, 0x9a, 0xa0, 0x3e, 0x95, 0x29, 0xa2, 0xbe,
  0x10, 0x58, 0x05, 0xbd, 0x83, 0x11, 0x8f, 0xbe, 0x70, 0xbb, 0x3c, 0xbd,
  0xac, 0x75, 0x8b, 0xbe, 0x68, 0xa5, 0xd0, 0xbd, 0x70, 0x30, 0xcd, 0xbc,
  0xb0, 0xb2, 0xa1, 0xbd, 0x8a, 0x86, 0x1a, 0xc0, 0x71, 0x40, 0xa5, 0x3e,
  0x62, 0x41, 0x0c, 0x3e, 0x9c, 0x4d, 0x21, 0x3f, 0x98, 0x2d, 0x48, 0x3e,
  0xdb, 0x26, 0x9f, 0xbe, 0x72, 0x25, 0x04, 0x3d, 0xdd, 0xaa, 0x84, 0xbd,
  0x91, 0x11, 0x80, 0x3f, 0x7b, 0x5e, 0x05, 0xbf, 0xd8, 0xde, 0x84, 0x3e,
  0xa8, 0x4c, 0x5a, 0x3e, 0xed, 0xfa, 0xb8, 0x3e, 0x15, 0x8a, 0xa8, 0xbe,
  0x87, 0x07, 0x58, 0x3f, 0xe4, 0xd6, 0xf4, 0x3e, 0xbd, 0xc1, 0xdd, 0x3e,
  0x6e, 0x63, 0x10, 0xbf, 0x12, 0xc1, 0x28, 0x3e, 0x85, 0x84, 0xd5, 0x3c,
  0x7e, 0xad, 0x09, 0xbe, 0x37, 0x18, 0x2d, 0x3f, 0x6f, 0x63, 0x35, 0x3e,
  0x7b, 0x01, 0xa2, 0xbe, 0xaa, 0x3d, 0x9f, 0x3a, 0xda, 0xad, 0xb0, 0x3e,
  0x58, 0xf4, 0xc2, 0xbd, 0xe4, 0xba, 0x6a, 0xbe, 0xd1, 0x20, 0xb7, 0xbe,
  0xbd, 0xb5, 0x37, 0xbe, 0x3c, 0x8c, 0xa0, 0xbe, 0xbc, 0x4f, 0x60, 0xbe,
  0xc0, 0x0b, 0xa8, 0xbe, 0x9c, 0x25, 0x17, 0xbe, 0x98, 0x4d, 0x05, 0x3d,
  0xd0, 0x9a, 0xab, 0x3c, 0x80, 0x53, 0x77, 0x3e, 0x8c, 0x0e, 0xb4, 0x3d,
  0x7c, 0x5e, 0xa1, 0x3e, 0x16, 0x9e, 0x5f, 0x40, 0x0b, 0x90, 0xf9, 0xbc,
  0x2a, 0x94, 0xb5, 0x3d, 0x09, 0x3d, 0xc9, 0x3e, 0xa1, 0x6d, 0x7f, 0x3e,
  0x36, 0xd9, 0xc2, 0x3e, 0xe0, 0xca, 0x20, 0x3e, 0x5e, 0x6b, 0xc2, 0xbe,
  0x66, 0x62, 0x30, 0x3e, 0x74, 0x6a, 0x0b, 0xbf, 0x53, 0x79, 0xfd, 0x3d,
  0xf5, 0x55, 0xa7, 0x3e, 0x3d, 0x6e, 0x84, 0xbb, 0xec, 0xf4, 0x25, 0x3e,
  0xdb, 0x42, 0x0c, 0x3e, 0xfa, 0x86, 0x40, 0x3e, 0x21, 0x91, 0x92, 0xbe,
  0x66, 0x1e, 0xa5, 0xbd, 0xa6, 0xe1, 0xae, 0xbc, 0x86, 0x5e, 0xb5, 0x3d,
  0x19, 0x7f, 0x13, 0x3e, 0x45, 0xc2, 0x05, 0xbe, 0x07, 0x4b, 0xa5, 0xbd,
  0xd0, 0x31, 0xfc, 0x3b, 0x90, 0xed, 0x82, 0xbe, 0xc1, 0xa8, 0x9a, 0x3e,
  0x25, 0xc1, 0x38, 0xbd, 0x17, 0x8f, 0xbd, 0x3d, 0x86, 0xad, 0x23, 0xbe,
  0x96, 0x05, 0x29, 0x3e, 0x39, 0x9f, 0x4f, 0xbe, 0x85, 0xc8, 0xac, 0x3d,
  0xad, 0x66, 0xa0, 0x3e, 0x62, 0xd4, 0xe7, 0xbc, 0xc6, 0x7c, 0xc2, 0xbe,
  0x1f, 0x94, 0x4e, 0xbe, 0x0d, 0x9b, 0xa5, 0xbe, 0x9b, 0x27, 0x1c, 0x3d,
  0xa8, 0x5d, 0xf1, 0x3d, 0x10, 0x20, 0xaa, 0x3c, 0x7a, 0xbf, 0x4c, 0xbd,
  0xb4, 0x14, 0x7b, 0xbf, 0x8d, 0xa1, 0xaa, 0xbe, 0x79, 0x2d, 0x64, 0xbe,
  0xf0, 0x68, 0x79, 0x3e, 0x28, 0x0c, 0x6d, 0x3c, 0xe2, 0x7a, 0xcd, 0x3c,
  0x4c, 0x31, 0xb8, 0x3e, 0x5d, 0x36, 0xff, 0x3d, 0xa7, 0x47, 0x1a, 0x3c,
  0x0f, 0xd4, 0x50, 0x3e, 0x16, 0xa6, 0xc3, 0xbc, 0x57, 0x99, 0xa7, 0x3f,
  0xfd, 0xf8, 0xf8, 0x3e, 0x38, 0x6e, 0x89, 0xbf, 0xdd, 0xb9, 0x91, 0x3d,
  0x98, 0x52, 0x9e, 0x3d, 0x8d, 0x08, 0x6b, 0xbe, 0x7f, 0x16, 0xbd, 0xbd,
  0x22, 0xdd, 0xa2, 0xbc, 0xb2, 0x81, 0x14, 0x3f, 0xef, 0x3d, 0x00, 0xbc,
  0x64, 0x4f, 0xc1, 0x3c, 0x29, 0x9d, 0x8d, 0x3e, 0xc0, 0xaa, 0xfb, 0x3b,
  0xe0, 0x2b, 0x44, 0x3e, 0x40, 0x46, 0x6f, 0x3e, 0xaa, 0x9a, 0x80, 0x3e,
  0x70, 0xea, 0x07, 0x3d, 0x3c, 0x9a, 0xc8, 0xbd, 0x24, 0x9f, 0x40, 0xbe,
  0xdc, 0x50, 0x9e, 0xbd, 0xd4, 0x8b, 0x8d, 0x3e, 0x78, 0x9b, 0xbf, 0xbd,
  0x43, 0x07, 0x59, 0xbe, 0x39, 0x0e, 0x80, 0xbe, 0xf4, 0x46, 0xcf, 0xbd,
  0xb8, 0x36, 0xa0, 0xbe, 0x80, 0xf5, 0x7f, 0x3c, 0x64, 0xf1, 0x7d, 0x3e,
  0x28, 0x42, 0xe8, 0x3d, 0x14, 0xa8, 0x39, 0xbe, 0x00, 0xed, 0x39, 0xbe,
  0x40, 0xf9, 0xe2, 0xbb, 0xf8, 0x5c, 0x41, 0x3d, 0x0a, 0xaa, 0xa8, 0xbe,
  0xb4, 0xcf, 0xfb, 0x3d, 0x4c, 0xd6, 0x16, 0x3e, 0xe0, 0x5e, 0x4b, 0xbe,
  0x11, 0xfb, 0x9c, 0xbe, 0xcd, 0xe6, 0x87, 0x3d, 0x7c, 0x48, 0x82, 0xbf,
  0x55, 0x91, 0xe0, 0x3e, 0x1c, 0xee, 0x13, 0xbe, 0xec, 0xe3, 0x8a, 0xbe,
  0x13, 0x86, 0xc7, 0x3e, 0xc5, 0xdc, 0x26, 0x3f, 0x72, 0x26, 0x2b, 0x3e,
  0x30, 0xc6, 0xc2, 0xbd, 0x1e, 0x35, 0x6f, 0x3e, 0xed, 0x5a, 0x3b, 0x3e,
  0x7e, 0x2b, 0xd6, 0xbd, 0x95, 0x2b, 0x86, 0xbd, 0x69, 0x0b, 0x2a, 0x3f,
  0x22, 0xb2, 0xfa, 0x3e, 0x25, 0x43, 0x02, 0xbe, 0xbf, 0x81, 0x11, 0xbf,
  0x7e, 0x6c, 0x43, 0xbe, 0x1c, 0xc0, 0x63, 0xbe, 0x29, 0xbc, 0xed, 0x3e,
  0xd8, 0xf4, 0x2a, 0xbe, 0xb4, 0xc4, 0x95, 0x3c, 0x7a, 0xb5, 0xae, 0xbe,
  0x31, 0xcb, 0x27, 0x3e, 0xdd, 0xaf, 0x4f, 0xbe, 0x04, 0x2d, 0x69, 0x3e,
  0x78, 0x07, 0x92, 0xbe, 0x80, 0x36, 0x2f, 0xbc, 0x78, 0xf0, 0x68, 0xbd,
  0xa0, 0x9f, 0xf6, 0xbc, 0x47, 0x2f, 0xb1, 0xbe, 0x4e, 0x1a, 0x9f, 0xbe,
  0xc0, 0x3a, 0x8d, 0xbd, 0x80, 0x77, 0xdb, 0xbd, 0x8a, 0x2a, 0xa1, 0x3e,
  0x1b, 0xe9, 0x35, 0xbe, 0x1e, 0xc1, 0xb4, 0x3e, 0xf3, 0x5f, 0x21, 0xbe,
  0xf0, 0x6f, 0x80, 0xbc, 0x0f, 0xfc, 0xd3, 0x3e, 0x22, 0x84, 0xc5, 0xbe,
  0xd0, 0xe6, 0x19, 0x3f, 0x3e, 0xcb, 0x3c, 0x3d, 0x8e, 0x61, 0x7c, 0xbe,
  0x22, 0x55, 0x0e, 0x3f, 0xc0, 0xdc, 0x66, 0xbd, 0x0d, 0x13, 0xdd, 0x3c,
  0xfc, 0x58, 0x58, 0x3d, 0xc6, 0xc2, 0x14, 0x3f, 0x9e, 0xb6, 0x99, 0x3e,
  0xc1, 0x48, 0xeb, 0x3c, 0x42, 0x93, 0x01, 0x3e, 0x63, 0x23, 0x3f, 0x3f,
  0x3f, 0x67, 0xe2, 0xbe, 0x3e, 0xb4, 0x4d, 0xbe, 0x15, 0xfc, 0xd1, 0x3e,
  0xbf, 0x80, 0x33, 0xbe, 0x39, 0x22, 0xd1, 0x3d, 0xa8, 0x88, 0xb4, 0xbe,
  0x99, 0x2a, 0x91, 0x3e, 0x61, 0x3a, 0x33, 0xbe, 0x47, 0x34, 0x89, 0xbc,
  0x57, 0x20, 0xec, 0x3e, 0x72, 0x8c, 0xbe, 0x3b, 0x00, 0xd6, 0x70, 0x3e,
  0x03, 0x78, 0xde, 0x3b, 0x13, 0xb0, 0x22, 0x3e, 0xea, 0x8f, 0x1d, 0x3f,
  0xa5, 0xda, 0xcc, 0x3e, 0x67, 0x08, 0x47, 0x3e, 0xa1, 0xa5, 0x39, 0x3e,
  0x33, 0xe7, 0x08, 0x3f, 0x47, 0x1e, 0xd4, 0xbd, 0xb2, 0xce, 0xc9, 0xbe,
  0x7c, 0xc9, 0x40, 0x3e, 0x31, 0x10, 0x6a, 0xbe, 0x00, 0x8b, 0x28, 0x3e,
  0xf6, 0xc4, 0xd0, 0xbd, 0x94, 0x88, 0x7a, 0x3e, 0xbd, 0x17, 0xa5, 0x3e,
  0x4a, 0x0e, 0x09, 0x3f, 0x0f, 0xa3, 0xf1, 0x3d, 0x0e, 0x5c, 0xe2, 0x3e,
  0xb4, 0xc6, 0x91, 0x3e, 0x09, 0x8d, 0xe9, 0x3d, 0x6a, 0xc3, 0x7f, 0xbe,
  0xfe, 0x53, 0x96, 0x3e, 0x52, 0x1f, 0x1d, 0x3f, 0x6c, 0xcb, 0xbf, 0xbe,
  0xa7, 0x11, 0x9b, 0xbe, 0x5b, 0xb3, 0xff, 0xbd, 0xb4, 0x1f, 0x5f, 0xbe,
  0xee, 0x16, 0x6e, 0xbe, 0xe8, 0xbe, 0x62, 0xbd, 0x2f, 0x76, 0x91, 0xbe,
  0xc8, 0xa5, 0x24, 0x3e, 0x20, 0x44, 0xc6, 0x3d, 0xba, 0x66, 0x27, 0xbe,
  0x46, 0xa6, 0x01, 0xbe, 0xe8, 0x9b, 0x83, 0x3e, 0x26, 0x85, 0x00, 0x3e,
  0x9a, 0x80, 0x49, 0xbe, 0xa0, 0xd4, 0x39, 0x3d, 0x28, 0x1e, 0xca, 0xbd,
  0x95, 0xda, 0x43, 0xbe, 0x71, 0x00, 0xcd, 0xbf, 0xc5, 0xb8, 0x31, 0xbd,
  0xd0, 0xa4, 0xf2, 0x3d, 0xdd, 0x3b, 0xb7, 0xbc, 0x1a, 0x54, 0x52, 0xbd,
  0xa5, 0x26, 0x8d, 0xbe, 0x50, 0x87, 0xbf, 0xbe, 0xed, 0xce, 0x84, 0xbe,
  0x6c, 0x1f, 0xd9, 0xbd, 0x95, 0xee, 0x23, 0x3e, 0x03, 0x70, 0x74, 0x3e,
  0x6d, 0xc0, 0x4d, 0xbd, 0x18, 0x21, 0x37, 0xbf, 0x55, 0x2a, 0x8f, 0x3f,
  0x03, 0x57, 0xe9, 0xbe, 0xd0, 0xd6, 0x4f, 0x3d, 0x38, 0x88, 0x40, 0x3c,
  0x66, 0xef, 0x76, 0xbe, 0xa1, 0x70, 0x01, 0x3f, 0x9f, 0x42, 0x9d, 0x3e,
  0xc2, 0x49, 0xd1, 0xbd, 0x0e, 0xf1, 0x89, 0x3d, 0x13, 0x71, 0x81, 0x3e,
  0x3e, 0x71, 0x9f, 0x3e, 0x97, 0x3d, 0xad, 0xbe, 0xb7, 0x20, 0x7e, 0x3d,
  0x5c, 0x00, 0x42, 0xbf, 0xcd, 0xcf, 0x05, 0x3f, 0x33, 0x68, 0xa4, 0x3e,
  0xdd, 0x5a, 0x28, 0x3e, 0x57, 0xe5, 0xf3, 0x3e, 0xb6, 0xad, 0x7f, 0xbe,
  0x3b, 0xa5, 0xa7, 0xbd, 0xb6, 0xc6, 0xe1, 0xbd, 0x91, 0xc5, 0x5a, 0x3f,
  0x73, 0x4f, 0x23, 0xbe, 0x7e, 0xd4, 0xf3, 0x3d, 0x69, 0x14, 0xd8, 0x3e,
  0xdf, 0xde, 0xc0, 0x3e, 0xbe, 0x15, 0x3f, 0x3f, 0x35, 0xb5, 0xf8, 0x3e,
  0x51, 0x7d, 0x11, 0x3e, 0x56, 0x00, 0x52, 0x3f, 0x5b, 0x47, 0xd3, 0x3e,
  0xa9, 0x9a, 0x8c, 0x3d, 0x24, 0x51, 0x13, 0x3e, 0xba, 0xd5, 0xa5, 0xbd,
  0xbc, 0x59, 0x95, 0x3d, 0x72, 0x53, 0x6a, 0xbf, 0x5e, 0x79, 0x5b, 0xbe,
  0x2f, 0x2c, 0xc7, 0x3d, 0x07, 0xa2, 0xbd, 0x3c, 0x6a, 0x4a, 0x45, 0xbf,
  0x2a, 0x91, 0x54, 0xbd, 0xa2, 0x5b, 0xb0, 0xbe, 0xb4, 0xb6, 0xe9, 0xbd,
  0x46, 0xab, 0x9d, 0x3e, 0x15, 0x6a, 0xd8, 0xbe, 0xb4, 0xa4, 0x93, 0xbc,
  0xf0, 0x7f, 0xc7, 0x3b, 0x7c, 0xf7, 0x98, 0xbe, 0x98, 0x2a, 0x9f, 0xbe,
  0x98, 0x7b, 0x6f, 0x3e, 0x0c, 0xa5, 0x5c, 0x3e, 0x5e, 0xf5, 0xff, 0xff,
  0x04, 0x00, 0x00, 0x00, 0x80, 0x00, 0x00, 0x00, 0xf5, 0xc2, 0xda, 0x3c,
  0x00, 0x00, 0x00, 0x00, 0xaa, 0x3e, 0x14, 0xbc, 0x94, 0x83, 0x2a, 0x3e,
  0x00, 0x00, 0x00, 0x00, 0xc0, 0x00, 0x17, 0x3b, 0x59, 0xbd, 0x87, 0x3d,
  0x27, 0x70, 0x38, 0xbc, 0x00, 0x00, 0x00, 0x00, 0x0c, 0xa1, 0xd7, 0x3b,
  0xe9, 0x3b, 0x35, 0xbe, 0x00, 0x00, 0x00, 0x00, 0x22, 0xdc, 0xd6, 0x3c,
  0xef, 0x9a, 0x86, 0xbb, 0x2d, 0x70, 0xf9, 0xbb, 0xb4, 0xc4, 0x40, 0x3d,
  0xd4, 0xdf, 0xdd, 0x3e, 0x00, 0x00, 0x00, 0x00, 0x00, 0x00, 0x00, 0x00,
  0x5d, 0x4b, 0x41, 0xba, 0x94, 0xc8, 0xd7, 0xbe, 0x00, 0x00, 0x00, 0x00,
  0xf8, 0x3f, 0x74, 0x3b, 0x58, 0x36, 0x3d, 0x40, 0xd7, 0xa4, 0x12, 0x3b,
  0x7f, 0x8a, 0x20, 0x3f, 0x00, 0x00, 0x00, 0x00, 0xf0, 0x1d, 0x4f, 0xbe,
  0x68, 0x48, 0xda, 0xbe, 0x23, 0x14, 0x5f, 0x3b, 0xd2, 0xd6, 0x4c, 0x3a,
  0x81, 0x5b, 0x14, 0x3e, 0xea, 0xf5, 0xff, 0xff, 0x04, 0x00, 0x00, 0x00,
  0x10, 0x00, 0x00, 0x00, 0xc1, 0x1d, 0x24, 0xbf, 0x12, 0xae, 0xf0, 0x3e,
  0x44, 0xc2, 0xb2, 0x3f, 0xbf, 0x31, 0x40, 0xbf, 0x06, 0xf6, 0xff, 0xff,
  0x04, 0x00, 0x00, 0x00, 0x00, 0x01, 0x00, 0x00, 0x89, 0x18, 0x1c, 0x3f,
  0x07, 0x05, 0x4b, 0x3f, 0x62, 0x7a, 0x92, 0xbf, 0x0c, 0x2e, 0xf6, 0xbd,
  0xa8, 0x15, 0x0c, 0x3f, 0xff, 0x0b, 0x1d, 0x3e, 0xeb, 0xed, 0xf1, 0xbe,
  0xa7, 0xa7, 0x4c, 0x3f, 0x85, 0x4f, 0xf4, 0xbe, 0xf6, 0x41, 0x43, 0x3f,
  0xb8, 0x7c, 0xc0, 0xbf, 0xab, 0x95, 0x87, 0x3d, 0xfc, 0xc6, 0x94, 0x3f,
  0x88, 0x84, 0xa7, 0x3f, 0xec, 0x17, 0x3a, 0xbf, 0x7a, 0xaa, 0x9c, 0x3f,
  0x45, 0x0f, 0x04, 0x3f, 0x1c, 0xeb, 0x30, 0xbe, 0x4c, 0x95, 0x5a, 0x3f,
  0x30, 0x0a, 0x80, 0xbe, 0x9d, 0x05, 0xf7, 0xbf, 0x01, 0x38, 0xe1, 0x3e,
  0x02, 0x27, 0x72, 0x3f, 0x25, 0x53, 0x10, 0xbf, 0xb0, 0x6e, 0xdb, 0x3f,
  0xde, 0x8b, 0x09, 0xbe, 0x85, 0x88, 0xa1, 0xbd, 0xaa, 0x56, 0xa0, 0xbf,
  0x6e, 0x3f, 0x89, 0xbf, 0xb5, 0x3b, 0x40, 0xbf, 0xbf, 0x46, 0xb1, 0x3d,
  0x24, 0x58, 0x29, 0xbe, 0x31, 0x01, 0x01, 0x3f, 0xa3, 0xce, 0x0b, 0xc0,
  0xd7, 0x12, 0xa5, 0x3c, 0x45, 0xda, 0x5c, 0xbf, 0x3e, 0xcf, 0xab, 0xbe,
  0xb1, 0x8a, 0x26, 0xc0, 0xdd, 0xed, 0x9a, 0xbf, 0xb8, 0xb5, 0x99, 0xbf,
  0x0f, 0xda, 0xa6, 0x3e, 0xd4, 0xcf, 0xae, 0xbf, 0x8f, 0x87, 0x5d, 0xbd,
  0x4d, 0x2f, 0x80, 0x3f, 0x3e, 0xa5, 0x2f, 0x3f, 0x44, 0x17, 0x30, 0xbd,
  0x6f, 0x7b, 0x84, 0xbe, 0xba, 0xa8, 0xdd, 0x3e, 0xc7, 0x6f, 0xe8, 0xbf,
  0xce, 0x52, 0x53, 0xbf, 0x05, 0x91, 0xb6, 0xbe, 0x76, 0x2e, 0xc5, 0x3f,
  0xb1, 0xd7, 0xae, 0x3e, 0x58, 0x1f, 0x38, 0xbf, 0x42, 0x87, 0x3d, 0x3f,
  0xa9, 0x10, 0xf9, 0xbe, 0xbf, 0x33, 0x15, 0xbf, 0xec, 0xe0, 0xb6, 0xbd,
  0xb2, 0x0c, 0xdc, 0x3e, 0xec, 0x96, 0x98, 0x3e, 0x8a, 0x50, 0x49, 0xbe,
  0x81, 0xb5, 0xb0, 0xbf, 0xad, 0x34, 0x11, 0x3f, 0xe7, 0x28, 0x3a, 0xbc,
  0x12, 0xf7, 0xff, 0xff, 0x04, 0x00, 0x00, 0x00, 0x40, 0x00, 0x00, 0x00,
  0x63, 0x47, 0x51, 0xc1, 0x58, 0xcb, 0xc6, 0xbd, 0x56, 0xbe, 0x56, 0xc0,
  0x0e, 0x20, 0x28, 0xc0, 0x18, 0xa4, 0x95, 0x40, 0x29, 0xbc, 0xff, 0x40,
  0x6a, 0x6f, 0x0e, 0x40, 0xda, 0x9a, 0xab, 0x41, 0xae, 0xe6, 0x6e, 0x41,
  0xe1, 0x06, 0x64, 0x41, 0x35, 0xea, 0xc2, 0x41, 0x08, 0x23, 0xd4, 0x3f,
  0xf9, 0x23, 0xa4, 0x41, 0x55, 0xa2, 0x1e, 0xc1, 0x10, 0x43, 0x64, 0x41,
  0xf7, 0xa4, 0xb0, 0x41, 0x5e, 0xf7, 0xff, 0xff, 0x04, 0x00, 0x00, 0x00,
  0x00, 0x08, 0x00, 0x00, 0x68, 0xed, 0x7e, 0xbc, 0xd5, 0x4a, 0x86, 0xc1,
  0x66, 0xdb, 0xec, 0xc0, 0xc6, 0xa8, 0xcc, 0xba, 0x00, 0x65, 0xd6, 0xc0,
  0xfb, 0x7a, 0x57, 0x3d, 0x7b, 0xb3, 0xf3, 0x3e, 0x04, 0xd2, 0x95, 0xbc,
  0x27, 0x14, 0xc0, 0x41, 0xc2, 0x45, 0x10, 0xbc, 0x89, 0x50, 0xfd, 0x3c,
  0x29, 0xee, 0x11, 0xbf, 0x2f, 0xe6, 0xbf, 0x3a, 0xfa, 0xfa, 0x3c, 0x3e,
  0xe1, 0xef, 0x88, 0x40, 0xe6, 0x48, 0x02, 0x3d, 0x9c, 0x17, 0x35, 0x3d,
  0x51, 0x43, 0x6a, 0x40, 0x18, 0xda, 0x2a, 0xc0, 0x1b, 0xab, 0x05, 0x3d,
  0xcf, 0x73, 0xfa, 0x3c, 0xa1, 0x6f, 0x56, 0x40, 0x10, 0x84, 0xf6, 0xbb,
  0x6c, 0x09, 0xab, 0x3b, 0x9d, 0xe8, 0x18, 0x3c, 0x65, 0x88, 0xa7, 0x3c,
  0x50, 0xeb, 0xbc, 0xc1, 0x87, 0x58, 0xb8, 0xc0, 0xac, 0xd4, 0x9c, 0x3c,
  0xe0, 0x18, 0x57, 0xbd, 0x1c, 0xd8, 0xec, 0xbc, 0x42, 0x45, 0xdb, 0x3d,
  0x4d, 0x2f, 0x08, 0x3c, 0x0b, 0x0a, 0xe5, 0x40, 0x70, 0xca, 0xe8, 0xc0,
  0x96, 0xb2, 0xcc, 0x3c, 0x36, 0x75, 0x8e, 0xc0, 0xb5, 0x5b, 0x44, 0x3d,
  0x48, 0xc6, 0x9a, 0xbd, 0xa9, 0x2f, 0x13, 0xbc, 0xef, 0x8f, 0x9c, 0x40,
  0x1f, 0x36, 0x71, 0x3c, 0x86, 0xa5, 0x80, 0x3c, 0xc6, 0x0b, 0x49, 0xbe,
  0xbc, 0x6f, 0xe8, 0x3b, 0xaa, 0x33, 0x8a, 0x3f, 0x32, 0x72, 0xda, 0x40,
  0xf5, 0x1a, 0x0a, 0x3d, 0x42, 0x5c, 0xa7, 0xbc, 0x09, 0xd3, 0xe7, 0x3f,
  0x2b, 0xcc, 0x7e, 0xc0, 0xfd, 0x9d, 0x3d, 0x3c, 0xf0, 0xc7, 0xc5, 0xbb,
  0x96, 0x7c, 0x70, 0x40, 0xbb, 0x80, 0xcd, 0xbc, 0x0c, 0x59, 0xb1, 0xbc,
  0xf0, 0xe8, 0x45, 0xbb, 0x1d, 0x14, 0x0f, 0xbc, 0x59, 0x53, 0xd1, 0xc0,
  0x46, 0x00, 0x18, 0x40, 0xb1, 0x69, 0xc6, 0x39, 0x67, 0x36, 0x48, 0xbd,
  0xc2, 0x46, 0x9d, 0xbc, 0x1a, 0xaa, 0xb7, 0xbe, 0x68, 0x97, 0x96, 0xbb,
  0x04, 0xb2, 0xbf, 0xbe, 0x68, 0x83, 0x1d, 0xc0, 0x26, 0x56, 0x10, 0x3c,
  0xb6, 0xf9, 0x7e, 0xc0, 0xd1, 0xd8, 0x84, 0xbd, 0x08, 0x14, 0x93, 0xbe,
  0x6b, 0x61, 0x8c, 0x3c, 0x79, 0x8a, 0x2b, 0x41, 0x50, 0x4b, 0x1e, 0x3d,
  0x07, 0xfc, 0x1e, 0xbc, 0x6e, 0x7d, 0xa9, 0x3d, 0x65, 0xfe, 0x95, 0x3c,
  0x6a, 0x83, 0xb5, 0xbf, 0x10, 0x0b, 0x44, 0x40, 0xed, 0x6e, 0xd8, 0xbc,
  0x13, 0x80, 0xeb, 0x3c, 0xa5, 0x14, 0x45, 0x40, 0x18, 0xb2, 0xe8, 0x3e,
  0x97, 0xca, 0x05, 0x3c, 0xe4, 0xfa, 0x3a, 0xbc, 0xca, 0x91, 0x3e, 0x3f,
  0x97, 0xa6, 0xe0, 0xbc, 0xe4, 0x1c, 0x19, 0x3d, 0xd5, 0xf0, 0xdd, 0xbb,
  0x76, 0x9e, 0x55, 0x3c, 0x3c, 0x35, 0x32, 0xc1, 0x5e, 0x23, 0x05, 0x41,
  0x0c, 0xe5, 0x02, 0xbc, 0x13, 0xd5, 0xda, 0x3c, 0xc0, 0xe0, 0x2b, 0xbc,
  0xdf, 0x2c, 0xe5, 0x3d, 0x47, 0x06, 0xa5, 0x3b, 0x0a, 0x75, 0x99, 0x40,
  0x8d, 0x7c, 0x01, 0x40, 0x80, 0x01, 0xc7, 0xbb, 0x96, 0x6b, 0x58, 0x41,
  0x14, 0x7e, 0x72, 0xbc, 0xec, 0x70, 0x82, 0xbe, 0x3e, 0xde, 0x2e, 0xbb,
  0x41, 0xba, 0xf4, 0x3f, 0x29, 0xb0, 0x24, 0xbd, 0x51, 0x45, 0x34, 0xba,
  0x69, 0x84, 0xae, 0xbf, 0x58, 0x65, 0xfb, 0x3b, 0xc7, 0x66, 0xb5, 0x3f,
  0x8f, 0xeb, 0x4f, 0xbd, 0x7a, 0x53, 0xb0, 0xbd, 0xd6, 0x92, 0x16, 0x3d,
  0xd5, 0x92, 0xfa, 0x3f, 0xfc, 0x56, 0xbd, 0xbf, 0x6b, 0x58, 0x96, 0xbc,
  0xc8, 0x59, 0x07, 0xbd, 0x20, 0x9c, 0x12, 0xc0, 0xd1, 0x68, 0x49, 0x3d,
  0xce, 0x1f, 0xcb, 0x3b, 0xfc, 0x81, 0xa6, 0x39, 0x42, 0xbc, 0x49, 0x3c,
  0x6d, 0xee, 0x27, 0xbf, 0xcb, 0xa6, 0x05, 0xc0, 0x2a, 0x92, 0xdb, 0x3b,
  0x5b, 0x99, 0x6c, 0x3c, 0xff, 0x9b, 0xb5, 0x3b, 0x06, 0xfe, 0x57, 0x3e,
  0x39, 0x71, 0x25, 0x3d, 0x31, 0x45, 0xf3, 0xc0, 0x19, 0x8e, 0xa8, 0x3f,
  0x4b, 0x92, 0x15, 0xbc, 0xe7, 0x1f, 0x33, 0xc1, 0x4e, 0xbb, 0x8c, 0x3c,
  0x36, 0x80, 0x88, 0x3d, 0xd3, 0x60, 0x08, 0xbc, 0x62, 0xb7, 0x53, 0x41,
  0x26, 0x3e, 0xa5, 0x3c, 0x66, 0xcf, 0x34, 0xbd, 0x1f, 0x30, 0x8d, 0xbe,
  0x76, 0xfd, 0x84, 0x3c, 0x7a, 0x1d, 0x41, 0xbf, 0x40, 0xba, 0x24, 0xbf,
  0xc7, 0x49, 0xa3, 0x3d, 0xba, 0xcc, 0xc8, 0xbd, 0xca, 0xe8, 0x3f, 0x3f,
  0x45, 0x54, 0x62, 0x3f, 0x13, 0x61, 0x03, 0xbd, 0xd9, 0x7a, 0x12, 0xbc,
  0xb9, 0x16, 0xa5, 0xbf, 0x28, 0x01, 0x5e, 0x3c, 0xd1, 0x1b, 0x95, 0x3b,
  0xbf, 0xc8, 0x25, 0xbb, 0x6b, 0xdc, 0x18, 0xbc, 0x48, 0x71, 0x80, 0xc0,
  0x11, 0x77, 0x65, 0x40, 0x7a, 0xd1, 0x45, 0x3a, 0xdd, 0xfd, 0x0b, 0x3b,
  0xfd, 0xb5, 0x4a, 0xbb, 0x41, 0x20, 0x9d, 0xbd, 0x94, 0xeb, 0x47, 0x3c,
  0xb4, 0x17, 0x07, 0xc1, 0x94, 0xea, 0x92, 0x40, 0x86, 0x70, 0x8c, 0xbb,
  0x53, 0xf6, 0x8b, 0xc1, 0x9a, 0x73, 0xf5, 0x3b, 0x68, 0x91, 0xd1, 0x3b,
  0x27, 0x29, 0xba, 0x3c, 0xe9, 0x06, 0x94, 0xbe, 0x9c, 0xb3, 0x10, 0xbc,
  0xb9, 0x45, 0xed, 0x3c, 0xab, 0x92, 0x80, 0x3f, 0x11, 0x07, 0x57, 0x3b,
  0x8f, 0x83, 0xbf, 0xbf, 0x64, 0x79, 0x8e, 0xbf, 0xf8, 0xb5, 0x64, 0xbd,
  0xa2, 0xbc, 0x98, 0x3c, 0x22, 0x8b, 0xe6, 0xbf, 0xd9, 0x6b, 0x31, 0x40,
  0x84, 0x67, 0x27, 0xbc, 0x63, 0x91, 0x02, 0x3a, 0x42, 0xb1, 0x00, 0xbf,
  0xd6, 0xd4, 0x70, 0xbc, 0x76, 0x62, 0xdd, 0xbc, 0xe6, 0x7f, 0x13, 0x3b,
  0x79, 0xdb, 0x38, 0xbb, 0x1e, 0xab, 0x27, 0xc1, 0x60, 0xbf, 0xd9, 0x40,
  0x6b, 0x1e, 0xc6, 0x3c, 0x28, 0xa8, 0xd5, 0x3b, 0xce, 0x22, 0x9a, 0xbc,
  0xd0, 0x6b, 0xd2, 0x3c, 0x77, 0x6d, 0xae, 0x3b, 0xb4, 0x2d, 0xbc, 0x40,
  0xe1, 0x1c, 0xe4, 0xbf, 0x23, 0xf2, 0x40, 0x3c, 0x60, 0x4f, 0x12, 0x40,
  0x98, 0xca, 0xc0, 0x3c, 0x18, 0x34, 0xd4, 0xbe, 0xe7, 0x8f, 0x76, 0xbc,
  0x82, 0xb9, 0x80, 0x40, 0x95, 0xe2, 0x7e, 0xbc, 0x35, 0x0f, 0xb0, 0x3a,
  0x4e, 0xa0, 0x92, 0x3d, 0x46, 0x85, 0x60, 0x3b, 0xa7, 0x97, 0xc1, 0x3e,
  0x5f, 0x90, 0xd4, 0x3f, 0xfc, 0x9d, 0x11, 0xbc, 0x93, 0x23, 0x8d, 0xbd,
  0xad, 0x6e, 0x00, 0x40, 0xef, 0x20, 0xfb, 0xbf, 0x82, 0x0d, 0x31, 0xbc,
  0x24, 0x9e, 0xc0, 0x39, 0xad, 0x17, 0x9f, 0x40, 0x92, 0x0c, 0x18, 0x3b,
  0x31, 0x8c, 0xb6, 0x3b, 0x11, 0xcc, 0xef, 0xbb, 0x49, 0x92, 0xa7, 0xbc,
  0xc2, 0x75, 0x1e, 0xc1, 0x07, 0x8f, 0x61, 0xc0, 0x07, 0x41, 0xc5, 0xbc,
  0x93, 0xa0, 0xc9, 0x3b, 0x2e, 0xd2, 0x54, 0x3b, 0x97, 0x46, 0xdc, 0xbe,
  0x1c, 0xa8, 0x67, 0x3c, 0x04, 0x7a, 0x3b, 0x40, 0x28, 0x2a, 0x1c, 0x40,
  0x3c, 0x0b, 0x3a, 0xbb, 0x84, 0xac, 0x0a, 0x41, 0x9f, 0x52, 0x44, 0xbc,
  0x0c, 0xea, 0xa2, 0xbc, 0x7d, 0xf5, 0x83, 0xbc, 0xec, 0xc3, 0x8d, 0xc0,
  0xee, 0xd9, 0xb1, 0xbc, 0xe3, 0xc5, 0x69, 0x3b, 0x36, 0x99, 0x31, 0xbf,
  0x31, 0xb1, 0x29, 0x3c, 0xfe, 0x09, 0x14, 0x3e, 0x6f, 0x9a, 0x9d, 0xc0,
  0xef, 0xae, 0xe7, 0xbb, 0x11, 0x7c, 0xab, 0x3b, 0x24, 0x35, 0x62, 0x3f,
  0xba, 0xe3, 0x35, 0x3f, 0x6f, 0x9a, 0xb7, 0xb9, 0x58, 0xd4, 0x91, 0x3c,
  0xe6, 0x63, 0x85, 0xbf, 0xb8, 0x81, 0x98, 0xbd, 0xc6, 0x0e, 0xc2, 0x3c,
  0x0e, 0x83, 0x37, 0x3c, 0xda, 0xe8, 0x63, 0xbc, 0x30, 0xcf, 0x42, 0x40,
  0x58, 0xb8, 0x3f, 0xc0, 0x4b, 0xa1, 0xa3, 0xbc, 0x1e, 0xcf, 0xad, 0x3b,
  0xe3, 0x9d, 0xfb, 0x3c, 0xb6, 0x9e, 0xc1, 0xbd, 0x65, 0xf6, 0x24, 0x3d,
  0x8f, 0xa2, 0x8e, 0x3f, 0xc9, 0x60, 0x0d, 0xc1, 0x37, 0x9f, 0x08, 0x3c,
  0x17, 0x1e, 0x9a, 0xc0, 0x79, 0xfd, 0x54, 0xbd, 0x90, 0xae, 0x38, 0xbd,
  0xdc, 0xa4, 0xfd, 0xb9, 0xd4, 0x62, 0x24, 0x41, 0xfa, 0xdd, 0xa6, 0x3c,
  0xfd, 0xaa, 0x03, 0xbd, 0x3d, 0x0c, 0x3f, 0xbe, 0xf0, 0x1a, 0xbb, 0xba,
  0x76, 0xcc, 0x8d, 0x3f, 0xf1, 0xc7, 0x0f, 0x41, 0x40, 0x3e, 0x16, 0xbc,
  0x7b, 0xd1, 0x95, 0xbd, 0x0d, 0x23, 0x7d, 0x40, 0xdd, 0x39, 0xb0, 0xc0,
  0xcf, 0xa0, 0x7a, 0xbc, 0xef, 0x83, 0x99, 0x3c, 0x8e, 0x01, 0x81, 0x40,
  0x8f, 0x37, 0x91, 0xbc, 0xf9, 0xd9, 0xdf, 0x3c, 0xbd, 0xbb, 0xa7, 0xbb,
  0xa1, 0xa4, 0xaa, 0xbc, 0x94, 0xfb, 0xc9, 0x3f, 0x57, 0xd6, 0xd1, 0xc0,
  0xe4, 0x7b, 0x54, 0xbc, 0x2a, 0x5d, 0x1d, 0x3c, 0x44, 0x32, 0x7f, 0xbb,
  0xa8, 0x9b, 0xa8, 0x3d, 0xb4, 0xdb, 0x1d, 0xbd, 0x71, 0xa3, 0xae, 0x3f,
  0x07, 0xdf, 0x31, 0x41, 0x1e, 0x45, 0xa1, 0x3b, 0x76, 0x3d, 0x9c, 0x41,
  0x97, 0xd5, 0x9f, 0x3c, 0xbb, 0x29, 0x12, 0x3b, 0xa3, 0xae, 0x44, 0x3b,
  0xe0, 0xac, 0x38, 0xc1, 0x42, 0x16, 0x57, 0xbd, 0x72, 0x45, 0xaa, 0x3c,
  0xb2, 0xbb, 0x8c, 0x3e, 0x7e, 0x41, 0x9e, 0x3b, 0x43, 0xbd, 0x2e, 0xbf,
  0x3a, 0x68, 0x11, 0x40, 0x26, 0x23, 0x67, 0x3d, 0x95, 0x6f, 0x0d, 0xbd,
  0x91, 0xfe, 0x51, 0xc0, 0xfa, 0xac, 0x58, 0x40, 0xd6, 0x18, 0xbe, 0xbc,
  0x82, 0x06, 0xb4, 0x3c, 0xa3, 0x7b, 0x81, 0xc0, 0x81, 0xd5, 0x0a, 0xbd,
  0xa6, 0xe3, 0x22, 0x3c, 0x87, 0x92, 0x05, 0xbc, 0xfb, 0x6a, 0x99, 0x3c,
  0x31, 0x01, 0xc3, 0x40, 0x11, 0x7d, 0x35, 0xc0, 0x2b, 0x7d, 0x14, 0x3a,
  0x7c, 0xf8, 0x9d, 0xbb, 0x0c, 0x7a, 0xf1, 0x3a, 0xa5, 0x79, 0x2d, 0x3d,
  0xa0, 0x7f, 0x9c, 0x3a, 0x95, 0x86, 0xb2, 0xc0, 0xa3, 0x5a, 0x00, 0x40,
  0x44, 0x0d, 0xfe, 0x3a, 0x2e, 0x6f, 0xd9, 0xc0, 0x33, 0xe2, 0x9d, 0xbd,
  0xb3, 0x83, 0x4a, 0xbe, 0x8b, 0xa2, 0xa7, 0xbc, 0x4c, 0x8e, 0x31, 0x41,
  0x8a, 0x6c, 0x82, 0xbc, 0xb1, 0x45, 0x50, 0x3c, 0xb1, 0x5d, 0xac, 0xbe,
  0xc6, 0x05, 0xa9, 0xbb, 0x8f, 0x3f, 0xd1, 0x3f, 0x65, 0x48, 0x78, 0x40,
  0x93, 0x80, 0x46, 0x3d, 0xd6, 0xf1, 0xd0, 0x3c, 0xde, 0x51, 0x82, 0x3f,
  0xf9, 0x82, 0x17, 0xc0, 0xd7, 0x8c, 0x93, 0xbb, 0x64, 0xae, 0x68, 0xba,
  0x6b, 0x5c, 0x56, 0x3f, 0xeb, 0xb9, 0xc3, 0x3c, 0xe0, 0x9c, 0xe9, 0xbc,
  0x91, 0xd7, 0xae, 0x3b, 0xbd, 0x51, 0x2e, 0x3c, 0x77, 0x4d, 0xbc, 0xc1,
  0x8c, 0xd0, 0xd5, 0xc0, 0x92, 0x3b, 0x74, 0x3c, 0x4c, 0x32, 0x53, 0xbc,
  0x27, 0xf5, 0x19, 0xbc, 0x4a, 0xc0, 0x93, 0x3d, 0x17, 0x00, 0xd3, 0x3c,
  0x86, 0x65, 0xb5, 0xc1, 0xee, 0xc7, 0x67, 0xc1, 0x9d, 0xaa, 0xd7, 0xbb,
  0xd7, 0x98, 0xbc, 0xc1, 0x7b, 0x1f, 0x82, 0xbc, 0xff, 0x3c, 0x2a, 0xbe,
  0xa1, 0xc9, 0x36, 0xbc, 0xf1, 0x0c, 0x42, 0x41, 0x64, 0x75, 0x2e, 0x3d,
  0x0d, 0xc8, 0x0c, 0xbd, 0x3e, 0x5c, 0xaf, 0xbe, 0xa9, 0x58, 0xce, 0xbb,
  0x34, 0xea, 0x1f, 0x3f, 0xb7, 0x39, 0x47, 0x41, 0x41, 0xc8, 0x0c, 0xbd,
  0xe2, 0x62, 0x45, 0xbc, 0xaf, 0x94, 0x4b, 0x40, 0x84, 0x5c, 0xaa, 0xc0,
  0xce, 0x70, 0x39, 0xbc, 0xb0, 0x86, 0xc9, 0xbc, 0x02, 0x93, 0x18, 0x41,
  0x4f, 0x63, 0xf6, 0x3c, 0xa9, 0xae, 0xa4, 0x3b, 0x90, 0x8b, 0xf5, 0xbb,
  0x02, 0xb3, 0xab, 0xbc, 0x91, 0x70, 0x80, 0xc1, 0xc5, 0xea, 0x03, 0x3f,
  0x4c, 0x24, 0xba, 0xbc, 0x89, 0x87, 0x1c, 0x3d, 0x20, 0xbb, 0x23, 0x3a,
  0xf4, 0x91, 0x30, 0xbe, 0xd5, 0xfe, 0x17, 0xbc, 0xb5, 0x4e, 0xcc, 0x3f,
  0xe1, 0x14, 0x17, 0x41, 0x1f, 0x9f, 0x65, 0xbb, 0x4a, 0xaa, 0x35, 0x40,
  0x5d, 0x84, 0x20, 0xbd, 0x6c, 0xec, 0x72, 0xbe, 0x1d, 0xeb, 0x03, 0xbc,
  0x8f, 0x18, 0x8b, 0xc0, 0x1d, 0x63, 0x63, 0xbc, 0x81, 0xc4, 0xfa, 0x3b,
  0x94, 0x75, 0x0e, 0x3c, 0x9d, 0xc1, 0x2a, 0xbc, 0x27, 0xfc, 0xc3, 0x3e,
  0x27, 0xa5, 0x8e, 0xbe, 0xf9, 0xac, 0x50, 0xbc, 0xb5, 0x9e, 0xc4, 0x3c,
  0xa8, 0xd0, 0x17, 0x40, 0x4c, 0x54, 0x20, 0xbf, 0x71, 0x9c, 0xdd, 0x3c,
  0x4f, 0xfd, 0x31, 0x3d, 0x79, 0x5b, 0xb0, 0x3f, 0x02, 0x0c, 0x4e, 0xbd,
  0xec, 0xb6, 0x01, 0xbd, 0xec, 0x7e, 0x26, 0xbc, 0x01, 0x7e, 0x94, 0xbc,
  0x28, 0xb6, 0xd7, 0x3f, 0x8d, 0xb0, 0x7c, 0x3e, 0x5d, 0xfa, 0xb2, 0xbc,
  0xc0, 0x22, 0x14, 0x3d, 0xd4, 0xf7, 0x12, 0xbc, 0xf6, 0x6b, 0x99, 0x3e,
  0x96, 0x92, 0x2b, 0xba, 0x9d, 0x74, 0xe6, 0x40, 0x64, 0x29, 0x84, 0x3f,
  0xcc, 0x11, 0xcc, 0x3b, 0xfc, 0x23, 0x19, 0x41, 0x6b, 0xcf, 0x13, 0xbc,
  0x79, 0xee, 0xf4, 0xbe, 0x15, 0x40, 0x45, 0x3c, 0x4c, 0x93, 0x2c, 0xc0,
  0xc0, 0xb5, 0xee, 0x3a, 0x6d, 0xd6, 0x07, 0xbc, 0x45, 0xf8, 0x9b, 0xbe,
  0xc5, 0x6f, 0xb1, 0x3b, 0xdb, 0x6c, 0x01, 0xbe, 0x3d, 0x2e, 0x5b, 0x3e,
  0x53, 0x7e, 0x9c, 0xbd, 0xd2, 0xe8, 0xfa, 0xbc, 0xc2, 0x09, 0xfc, 0x3f,
  0x7f, 0x38, 0xe9, 0x3e, 0x86, 0x22, 0xe6, 0x39, 0x1f, 0x7d, 0xc8, 0xbc,
  0xe9, 0x5c, 0x30, 0x3f, 0x1f, 0xcf, 0x79, 0x3c, 0xb7, 0xd9, 0x72, 0x3c,
  0x1a, 0x47, 0x06, 0xbc, 0xab, 0xe2, 0x18, 0xbc, 0xda, 0xd3, 0xa0, 0x3f,
  0x06, 0x4f, 0x25, 0xbf, 0x58, 0xa6, 0xbb, 0xbc, 0xff, 0xf7, 0xf5, 0x3c,
  0xeb, 0x9d, 0x29, 0xbb, 0xe8, 0x07, 0x09, 0x3d, 0xc8, 0xf7, 0x22, 0x3d,
  0x4b, 0xb2, 0x2d, 0xc1, 0xb2, 0x5b, 0x18, 0xc1, 0x1a, 0x4c, 0x2c, 0x3c,
  0x09, 0x3f, 0x77, 0xc1, 0x35, 0x01, 0x67, 0x3b, 0xaf, 0x27, 0xa8, 0x3d,
  0xe1, 0x70, 0xac, 0xbc, 0xb6, 0xeb, 0x8e, 0x41, 0x21, 0x46, 0x0f, 0x3d,
  0xe9, 0x58, 0x08, 0xbb, 0xf0, 0x09, 0xc1, 0xbf, 0x11, 0x9d, 0x3a, 0xbc,
  0x7f, 0xd0, 0x35, 0x3f, 0x40, 0x5b, 0x07, 0x41, 0x5f, 0x44, 0xfd, 0x3c,
  0xce, 0xaf, 0xe3, 0xbc, 0x28, 0x6b, 0xbf, 0x40, 0x6e, 0xc3, 0xd5, 0xc0,
  0x0f, 0xc2, 0x22, 0x3c, 0x8a, 0x9c, 0x14, 0x3d, 0xed, 0x0e, 0x6b, 0x40,
  0x77, 0xee, 0x67, 0xbc, 0xf2, 0x61, 0x48, 0xbd, 0xbf, 0xf2, 0xbb, 0xb9,
  0x5e, 0xdf, 0xf0, 0xbc, 0xd1, 0x64, 0xf9, 0xbf, 0xf0, 0x16, 0xb4, 0xc0,
  0x5b, 0x95, 0xd1, 0x3c, 0x31, 0x73, 0x1d, 0xbd, 0x22, 0xfa, 0xbc, 0xbb,
  0x88, 0x84, 0x04, 0xbe, 0x42, 0x7b, 0xc5, 0x3c, 0x07, 0x65, 0x5b, 0xc1,
  0x38, 0x6a, 0x4e, 0xc0, 0xe2, 0xb8, 0x19, 0xbb, 0x88, 0xb9, 0xcc, 0xc1,
  0xa1, 0xc5, 0xd0, 0xbd, 0xa9, 0x89, 0x96, 0xbd, 0x34, 0xac, 0x50, 0x3c,
  0x9b, 0xc0, 0x9c, 0x41, 0xee, 0xd3, 0xf1, 0x3c, 0x62, 0x49, 0x1c, 0xbb,
  0x3a, 0x33, 0x1a, 0xbf, 0xdf, 0xe2, 0xfc, 0xba, 0x23, 0xc0, 0x3f, 0x40,
  0xc3, 0x4a, 0x80, 0x40, 0x2a, 0x6d, 0xe3, 0xbc, 0xe3, 0xcb, 0xb4, 0x3b,
  0x62, 0xea, 0xca, 0x3f, 0x01, 0xc0, 0xcc, 0xc0, 0xb9, 0xe6, 0x9f, 0x3b,
  0x48, 0x37, 0x1b, 0x3d, 0x80, 0x97, 0xf0, 0x3f, 0xa4, 0x8d, 0xc9, 0x3c,
  0xac, 0x29, 0x56, 0xbc, 0x0b, 0xcf, 0xe9, 0xbc, 0x4a, 0x9c, 0x3c, 0xbc,
  0x0c, 0x84, 0x96, 0xc1, 0xaf, 0x48, 0xfd, 0xc0, 0xdb, 0x94, 0x50, 0x3b,
  0xb8, 0x72, 0x0f, 0xbc, 0xf8, 0x84, 0xaa, 0xbb, 0x70, 0xcd, 0xe1, 0x3c,
  0x48, 0xfa, 0xff, 0xff, 0x4c, 0xfa, 0xff, 0xff, 0x0f, 0x00, 0x00, 0x00,
  0x4d, 0x4c, 0x49, 0x52, 0x20, 0x43, 0x6f, 0x6e, 0x76, 0x65, 0x72, 0x74,
  0x65, 0x64, 0x2e, 0x00, 0x01, 0x00, 0x00, 0x00, 0x14, 0x00, 0x00, 0x00,
  0x00, 0x00, 0x0e, 0x00, 0x18, 0x00, 0x14, 0x00, 0x10, 0x00, 0x0c, 0x00,
  0x08, 0x00, 0x04, 0x00, 0x0e, 0x00, 0x00, 0x00, 0x14, 0x00, 0x00, 0x00,
  0x1c, 0x00, 0x00, 0x00, 0x24, 0x01, 0x00, 0x00, 0x28, 0x01, 0x00, 0x00,
  0x2c, 0x01, 0x00, 0x00, 0x04, 0x00, 0x00, 0x00, 0x6d, 0x61, 0x69, 0x6e,
  0x00, 0x00, 0x00, 0x00, 0x04, 0x00, 0x00, 0x00, 0xcc, 0x00, 0x00, 0x00,
  0x84, 0x00, 0x00, 0x00, 0x50, 0x00, 0x00, 0x00, 0x14, 0x00, 0x00, 0x00,
  0x00, 0x00, 0x0e, 0x00, 0x1a, 0x00, 0x14, 0x00, 0x10, 0x00, 0x0c, 0x00,
  0x0b, 0x00, 0x04, 0x00, 0x0e, 0x00, 0x00, 0x00, 0x1c, 0x00, 0x00, 0x00,
  0x00, 0x00, 0x00, 0x09, 0x1c, 0x00, 0x00, 0x00, 0x20, 0x00, 0x00, 0x00,
  0x01, 0x00, 0x00, 0x00, 0x00, 0x00, 0x06, 0x00, 0x08, 0x00, 0x04, 0x00,
  0x06, 0x00, 0x00, 0x00, 0x00, 0x00, 0x80, 0x3f, 0x01, 0x00, 0x00, 0x00,
  0x0a, 0x00, 0x00, 0x00, 0x01, 0x00, 0x00, 0x00, 0x09, 0x00, 0x00, 0x00,
  0x9a, 0xff, 0xff, 0xff, 0x10, 0x00, 0x00, 0x00, 0x00, 0x00, 0x00, 0x08,
  0x0c, 0x00, 0x00, 0x00, 0x10, 0x00, 0x00, 0x00, 0x10, 0xfb, 0xff, 0xff,
  0x01, 0x00, 0x00, 0x00, 0x09, 0x00, 0x00, 0x00, 0x03, 0x00, 0x00, 0x00,
  0x08, 0x00, 0x00, 0x00, 0x03, 0x00, 0x00, 0x00, 0x04, 0x00, 0x00, 0x00,
  0xca, 0xff, 0xff, 0xff, 0x10, 0x00, 0x00, 0x00, 0x00, 0x00, 0x00, 0x08,
  0x10, 0x00, 0x00, 0x00, 0x14, 0x00, 0x00, 0x00, 0xba, 0xff, 0xff, 0xff,
  0x00, 0x00, 0x00, 0x01, 0x01, 0x00, 0x00, 0x00, 0x08, 0x00, 0x00, 0x00,
  0x03, 0x00, 0x00, 0x00, 0x07, 0x00, 0x00, 0x00, 0x01, 0x00, 0x00, 0x00,
  0x02, 0x00, 0x00, 0x00, 0x00, 0x00, 0x0e, 0x00, 0x16, 0x00, 0x00, 0x00,
  0x10, 0x00, 0x0c, 0x00, 0x0b, 0x00, 0x04, 0x00, 0x0e, 0x00, 0x00, 0x00,
  0x18, 0x00, 0x00, 0x00, 0x00, 0x00, 0x00, 0x08, 0x18, 0x00, 0x00, 0x00,
  0x1c, 0x00, 0x00, 0x00, 0x00, 0x00, 0x06, 0x00, 0x08, 0x00, 0x07, 0x00,
  0x06, 0x00, 0x00, 0x00, 0x00, 0x00, 0x00, 0x01, 0x01, 0x00, 0x00, 0x00,
  0x07, 0x00, 0x00, 0x00, 0x03, 0x00, 0x00, 0x00, 0x00, 0x00, 0x00, 0x00,
  0x06, 0x00, 0x00, 0x00, 0x05, 0x00, 0x00, 0x00, 0x01, 0x00, 0x00, 0x00,
  0x0a, 0x00, 0x00, 0x00, 0x01, 0x00, 0x00, 0x00, 0x00, 0x00, 0x00, 0x00,
  0x0b, 0x00, 0x00, 0x00, 0x18, 0x04, 0x00, 0x00, 0xc0, 0x03, 0x00, 0x00,
  0x6c, 0x03, 0x00, 0x00, 0x2c, 0x03, 0x00, 0x00, 0xf0, 0x02, 0x00, 0x00,
  0xb4, 0x02, 0x00, 0x00, 0x68, 0x02, 0x00, 0x00, 0xd8, 0x01, 0x00, 0x00,
  0xdc, 0x00, 0x00, 0x00, 0x60, 0x00, 0x00, 0x00, 0x04, 0x00, 0x00, 0x00,
  0x2a, 0xfc, 0xff, 0xff, 0x00, 0x00, 0x00, 0x01, 0x14, 0x00, 0x00, 0x00,
  0x1c, 0x00, 0x00, 0x00, 0x1c, 0x00, 0x00, 0x00, 0x0b, 0x00, 0x00, 0x00,
  0x34, 0x00, 0x00, 0x00, 0x02, 0x00, 0x00, 0x00, 0xff, 0xff, 0xff, 0xff,
  0x04, 0x00, 0x00, 0x00, 0x14, 0xfc, 0xff, 0xff, 0x1b, 0x00, 0x00, 0x00,
  0x53, 0x74, 0x61, 0x74, 0x65, 0x66, 0x75, 0x6c, 0x50, 0x61, 0x72, 0x74,
  0x69, 0x74, 0x69, 0x6f, 0x6e, 0x65, 0x64, 0x43, 0x61, 0x6c, 0x6c, 0x5f,
  0x31, 0x3a, 0x30, 0x00, 0x02, 0x00, 0x00, 0x00, 0x01, 0x00, 0x00, 0x00,
  0x04, 0x00, 0x00, 0x00, 0x82, 0xfc, 0xff, 0xff, 0x00, 0x00, 0x00, 0x01,
  0x14, 0x00, 0x00, 0x00, 0x1c, 0x00, 0x00, 0x00, 0x1c, 0x00, 0x00, 0x00,
  0x0a, 0x00, 0x00, 0x00, 0x54, 0x00, 0x00, 0x00, 0x02, 0x00, 0x00, 0x00,
  0xff, 0xff, 0xff, 0xff, 0x04, 0x00, 0x00, 0x00, 0x6c, 0xfc, 0xff, 0xff,
  0x38, 0x00, 0x00, 0x00, 0x73, 0x65, 0x71, 0x75, 0x65, 0x6e, 0x74, 0x69,
  0x61, 0x6c, 0x5f, 0x31, 0x2f, 0x64, 0x65, 0x6e, 0x73, 0x65, 0x5f, 0x32,
  0x5f, 0x31, 0x2f, 0x4d, 0x61, 0x74, 0x4d, 0x75, 0x6c, 0x3b, 0x73, 0x65,
  0x71, 0x75, 0x65, 0x6e, 0x74, 0x69, 0x61, 0x6c, 0x5f, 0x31, 0x2f, 0x64,
  0x65, 0x6e, 0x73, 0x65, 0x5f, 0x32, 0x5f, 0x31, 0x2f, 0x41, 0x64, 0x64,
  0x00, 0x00, 0x00, 0x00, 0x02, 0x00, 0x00, 0x00, 0x01, 0x00, 0x00, 0x00,
  0x04, 0x00, 0x00, 0x00, 0xfa, 0xfc, 0xff, 0xff, 0x00, 0x00, 0x00, 0x01,
  0x14, 0x00, 0x00, 0x00, 0x1c, 0x00, 0x00, 0x00, 0x1c, 0x00, 0x00, 0x00,
  0x09, 0x00, 0x00, 0x00, 0xd4, 0x00, 0x00, 0x00, 0x02, 0x00, 0x00, 0x00,
  0xff, 0xff, 0xff, 0xff, 0x10, 0x00, 0x00, 0x00, 0xe4, 0xfc, 0xff, 0xff,
  0xba, 0x00, 0x00, 0x00, 0x73, 0x65, 0x71, 0x75, 0x65, 0x6e, 0x74, 0x69,
  0x61, 0x6c, 0x5f, 0x31, 0x2f, 0x62, 0x61, 0x74, 0x63, 0x68, 0x5f, 0x6e,
  0x6f, 0x72, 0x6d, 0x61, 0x6c, 0x69, 0x7a, 0x61, 0x74, 0x69, 0x6f, 0x6e,
  0x5f, 0x31, 0x2f, 0x62, 0x61, 0x74, 0x63, 0x68, 0x6e, 0x6f, 0x72, 0x6d,
  0x2f, 0x6d, 0x75, 0x6c, 0x5f, 0x31, 0x3b, 0x73, 0x65, 0x71, 0x75, 0x65,
  0x6e, 0x74, 0x69, 0x61, 0x6c, 0x5f, 0x31, 0x2f, 0x62, 0x61, 0x74, 0x63,
  0x68, 0x5f, 0x6e, 0x6f, 0x72, 0x6d, 0x61, 0x6c, 0x69, 0x7a, 0x61, 0x74,
  0x69, 0x6f, 0x6e, 0x5f, 0x31, 0x2f, 0x62, 0x61, 0x74, 0x63, 0x68, 0x6e,
  0x6f, 0x72, 0x6d, 0x2f, 0x61, 0x64, 0x64, 0x5f, 0x31, 0x3b, 0x73, 0x65,
  0x71, 0x75, 0x65, 0x6e, 0x74, 0x69, 0x61, 0x6c, 0x5f, 0x31, 0x2f, 0x64,
  0x65, 0x6e, 0x73, 0x65, 0x5f, 0x31, 0x5f, 0x32, 0x2f, 0x4d, 0x61, 0x74,
  0x4d, 0x75, 0x6c, 0x3b, 0x73, 0x65, 0x71, 0x75, 0x65, 0x6e, 0x74, 0x69,
  0x61, 0x6c, 0x5f, 0x31, 0x2f, 0x64, 0x65, 0x6e, 0x73, 0x65, 0x5f, 0x31,
  0x5f, 0x32, 0x2f, 0x52, 0x65, 0x6c, 0x75, 0x3b, 0x73, 0x65, 0x71, 0x75,
  0x65, 0x6e, 0x74, 0x69, 0x61, 0x6c, 0x5f, 0x31, 0x2f, 0x64, 0x65, 0x6e,
  0x73, 0x65, 0x5f, 0x31, 0x5f, 0x32, 0x2f, 0x41, 0x64, 0x64, 0x00, 0x00,
  0x02, 0x00, 0x00, 0x00, 0x01, 0x00, 0x00, 0x00, 0x10, 0x00, 0x00, 0x00,
  0xf2, 0xfd, 0xff, 0xff, 0x00, 0x00, 0x00, 0x01, 0x14, 0x00, 0x00, 0x00,
  0x1c, 0x00, 0x00, 0x00, 0x1c, 0x00, 0x00, 0x00, 0x08, 0x00, 0x00, 0x00,
  0x68, 0x00, 0x00, 0x00, 0x02, 0x00, 0x00, 0x00, 0xff, 0xff, 0xff, 0xff,
  0x20, 0x00, 0x00, 0x00, 0xdc, 0xfd, 0xff, 0xff, 0x4e, 0x00, 0x00, 0x00,
  0x73, 0x65, 0x71, 0x75, 0x65, 0x6e, 0x74, 0x69, 0x61, 0x6c, 0x5f, 0x31,
  0x2f, 0x64, 0x65, 0x6e, 0x73, 0x65, 0x5f, 0x31, 0x2f, 0x4d, 0x61, 0x74,
  0x4d, 0x75, 0x6c, 0x3b, 0x73, 0x65, 0x71, 0x75, 0x65, 0x6e, 0x74, 0x69,
  0x61, 0x6c, 0x5f, 0x31, 0x2f, 0x64, 0x65, 0x6e, 0x73, 0x65, 0x5f, 0x31,
  0x2f, 0x52, 0x65, 0x6c, 0x75, 0x3b, 0x73, 0x65, 0x71, 0x75, 0x65, 0x6e,
  0x74, 0x69, 0x61, 0x6c, 0x5f, 0x31, 0x2f, 0x64, 0x65, 0x6e, 0x73, 0x65,
  0x5f, 0x31, 0x2f, 0x41, 0x64, 0x64, 0x00, 0x00, 0x02, 0x00, 0x00, 0x00,
  0x01, 0x00, 0x00, 0x00, 0x20, 0x00, 0x00, 0x00, 0xd2, 0xfe, 0xff, 0xff,
  0x00, 0x00, 0x00, 0x01, 0x10, 0x00, 0x00, 0x00, 0x10, 0x00, 0x00, 0x00,
  0x07, 0x00, 0x00, 0x00, 0x28, 0x00, 0x00, 0x00, 0x58, 0xfe, 0xff, 0xff,
  0x1b, 0x00, 0x00, 0x00, 0x73, 0x65, 0x71, 0x75, 0x65, 0x6e, 0x74, 0x69,
  0x61, 0x6c, 0x5f, 0x31, 0x2f, 0x64, 0x65, 0x6e, 0x73, 0x65, 0x5f, 0x31,
  0x2f, 0x4d, 0x61, 0x74, 0x4d, 0x75, 0x6c, 0x00, 0x02, 0x00, 0x00, 0x00,
  0x20, 0x00, 0x00, 0x00, 0x0d, 0x00, 0x00, 0x00, 0x1a, 0xff, 0xff, 0xff,
  0x00, 0x00, 0x00, 0x01, 0x10, 0x00, 0x00, 0x00, 0x10, 0x00, 0x00, 0x00,
  0x06, 0x00, 0x00, 0x00, 0x1c, 0x00, 0x00, 0x00, 0xa0, 0xfe, 0xff, 0xff,
  0x0f, 0x00, 0x00, 0x00, 0x61, 0x72, 0x69, 0x74, 0x68, 0x2e, 0x63, 0x6f,
  0x6e, 0x73, 0x74, 0x61, 0x6e, 0x74, 0x34, 0x00, 0x01, 0x00, 0x00, 0x00,
  0x20, 0x00, 0x00, 0x00, 0x52, 0xff, 0xff, 0xff, 0x00, 0x00, 0x00, 0x01,
  0x10, 0x00, 0x00, 0x00, 0x10, 0x00, 0x00, 0x00, 0x05, 0x00, 0x00, 0x00,
  0x1c, 0x00, 0x00, 0x00, 0xd8, 0xfe, 0xff, 0xff, 0x0f, 0x00, 0x00, 0x00,
  0x61, 0x72, 0x69, 0x74, 0x68, 0x2e, 0x63, 0x6f, 0x6e, 0x73, 0x74, 0x61,
  0x6e, 0x74, 0x33, 0x00, 0x01, 0x00, 0x00, 0x00, 0x04, 0x00, 0x00, 0x00,
  0x8a, 0xff, 0xff, 0xff, 0x00, 0x00, 0x00, 0x01, 0x10, 0x00, 0x00, 0x00,
  0x10, 0x00, 0x00, 0x00, 0x04, 0x00, 0x00, 0x00, 0x1c, 0x00, 0x00, 0x00,
  0x10, 0xff, 0xff, 0xff, 0x0f, 0x00, 0x00, 0x00, 0x61, 0x72, 0x69, 0x74,
  0x68, 0x2e, 0x63, 0x6f, 0x6e, 0x73, 0x74, 0x61, 0x6e, 0x74, 0x32, 0x00,
  0x02, 0x00, 0x00, 0x00, 0x04, 0x00, 0x00, 0x00, 0x10, 0x00, 0x00, 0x00,
  0xc6, 0xff, 0xff, 0xff, 0x00, 0x00, 0x00, 0x01, 0x10, 0x00, 0x00, 0x00,
  0x10, 0x00, 0x00, 0x00, 0x03, 0x00, 0x00, 0x00, 0x1c, 0x00, 0x00, 0x00,
  0x4c, 0xff, 0xff, 0xff, 0x0f, 0x00, 0x00, 0x00, 0x61, 0x72, 0x69, 0x74,
  0x68, 0x2e, 0x63, 0x6f, 0x6e, 0x73, 0x74, 0x61, 0x6e, 0x74, 0x31, 0x00,
  0x01, 0x00, 0x00, 0x00, 0x10, 0x00, 0x00, 0x00, 0x00, 0x00, 0x16, 0x00,
  0x18, 0x00, 0x14, 0x00, 0x00, 0x00, 0x10, 0x00, 0x0c, 0x00, 0x08, 0x00,
  0x00, 0x00, 0x00, 0x00, 0x00, 0x00, 0x07, 0x00, 0x16, 0x00, 0x00, 0x00,
  0x00, 0x00, 0x00, 0x01, 0x10, 0x00, 0x00, 0x00, 0x10, 0x00, 0x00, 0x00,
  0x02, 0x00, 0x00, 0x00, 0x1c, 0x00, 0x00, 0x00, 0x9c, 0xff, 0xff, 0xff,
  0x0e, 0x00, 0x00, 0x00, 0x61, 0x72, 0x69, 0x74, 0x68, 0x2e, 0x63, 0x6f,
  0x6e, 0x73, 0x74, 0x61, 0x6e, 0x74, 0x00, 0x00, 0x02, 0x00, 0x00, 0x00,
  0x10, 0x00, 0x00, 0x00, 0x20, 0x00, 0x00, 0x00, 0x00, 0x00, 0x16, 0x00,
  0x1c, 0x00, 0x18, 0x00, 0x00, 0x00, 0x14, 0x00, 0x10, 0x00, 0x0c, 0x00,
  0x00, 0x00, 0x00, 0x00, 0x08, 0x00, 0x07, 0x00, 0x16, 0x00, 0x00, 0x00,
  0x00, 0x00, 0x00, 0x01, 0x14, 0x00, 0x00, 0x00, 0x20, 0x00, 0x00, 0x00,
  0x20, 0x00, 0x00, 0x00, 0x01, 0x00, 0x00, 0x00, 0x3c, 0x00, 0x00, 0x00,
  0x02, 0x00, 0x00, 0x00, 0xff, 0xff, 0xff, 0xff, 0x0d, 0x00, 0x00, 0x00,
  0x04, 0x00, 0x04, 0x00, 0x04, 0x00, 0x00, 0x00, 0x1e, 0x00, 0x00, 0x00,
  0x73, 0x65, 0x72, 0x76, 0x69, 0x6e, 0x67, 0x5f, 0x64, 0x65, 0x66, 0x61,
  0x75, 0x6c, 0x74, 0x5f, 0x6b, 0x65, 0x72, 0x61, 0x73, 0x5f, 0x74, 0x65,
  0x6e, 0x73, 0x6f, 0x72, 0x3a, 0x30, 0x00, 0x00, 0x02, 0x00, 0x00, 0x00,
  0x01, 0x00, 0x00, 0x00, 0x0d, 0x00, 0x00, 0x00, 0x02, 0x00, 0x00, 0x00,
  0x20, 0x00, 0x00, 0x00, 0x04, 0x00, 0x00, 0x00, 0xf4, 0xff, 0xff, 0xff,
  0x19, 0x00, 0x00, 0x00, 0x00, 0x00, 0x00, 0x19, 0x0c, 0x00, 0x0c, 0x00,
  0x0b, 0x00, 0x00, 0x00, 0x00, 0x00, 0x04, 0x00, 0x0c, 0x00, 0x00, 0x00,
  0x09, 0x00, 0x00, 0x00, 0x00, 0x00, 0x00, 0x09
};

constexpr unsigned int GeneratedCHeaderFile_optimized_mlp_tflite_len = 6308;


#endif //OPTIMIZED_MLP_FLOAT32_H
